memory_initialization_radix=16;
memory_initialization_vector=
4732ef17fa30fb3626,
0b32fe1c04210b30c7,
d7d1c511cddacef4c6,
31d9f435af26a5fbb4,
52632b0830e1255a12,
4fccdeb4d1150d27c9,
250229f031190f2020,
0417ece8ed1afe14f8,
f31f1213efe5e4ea22,
21e4cd17e20de818cd,
1b0e4afceb343b0b19,
03dcddf4bbe10ed7b1,
0bfceeec0a0319f4ef,
e9e0d4efe4e7e5eee8,
fb14ed0d1b011cf703,
b633b31ff416adbdd4,
04ec19d6604d3625f8,
1150ce263336c555c3,
cdc1f82fcae310b401,
b63113c4e2d3ea2a00,
030730414101274734,
01fffef50c13ebedfe,
f0eb00020bf6dcfc04,
13f5edd5fc0af6e5db,
82dac148d0dc590419,
5b4b5fdad2e642564b,
e0de3197b5c8e20128,
e1f40b0912ebe0e3d6,
1b1511f71ce3f1e4ef,
dbeef4052213e008e1,
1818f10e3c3136e624,
0ccaefede4f4e7f1cc,
d4e517cfd3ebebeb1d,
23e6eff4f502f5fa09,
1705e00a17fff70dfb,
2b2301fc0afb322f1f,
eff3f6f7e4dbe7e4e2,
fffbf6fa09fbf30bee,
100bf7011bfdfbf9ff,
6cfc254c26d83b4f48,
9bb401f102ed86a2ba,
2f1ae2c0f1d21831ec,
cd3f047f3fd46de32f,
dd121735ececfa1fde,
e6fc041aedec00fcd4,
0e12e2eff8dee6ced5,
f5ff0afff91d07012d,
e7f7f3e6cbe9ff0f0e,
e6ec02edca1cd613f9,
e11321eefb331b0522,
26760b050d1c8d81f8,
dff2fbfdd50b00e6e6,
f616e90d280831250e,
ded613d5e52511f9f8,
060f10040d2507fb1b,
5217bfeadad55e2feb,
0cd7feece6d9d60a18,
39f10170be78b5bfb7,
04f8f6191fa35141f1,
34e610da14353805f7,
262628042810f4fcee,
e8f7cbeb0eee0de8ee,
aeb9d7b5ff3f30471e,
fe07fbf6dde8f8e7f8,
08fb1643f2ecd800c1,
02fffe3111fd1d1bf6,
d3e1a12f1fd707502e,
c447b6f32f04df290e,
d205f2e904cfeffe16,
0dd3c21efa000bf408,
d5efe1ff0c09d50400,
e014b717e6090b27e6,
d5ec04c8022f09d807,
f4100e0bf7e8101422,
d6c1ebe275bcc2f27f,
12ce20d3474222d5b8,
3f1bc514a6ddf809c1,
cff53af7202ee7e1e6,
f8e713112214172c22,
11e0c7f20abf0154e6,
d9a5a20ded00460466,
01d9e3efcdd3f8ddd1,
04f1d304e8c81516f9,
e9f9d917cefb462419,
3ffe9151131c65e1cd,
f1ebe0f1f2ec0cee0c,
177f45af06e484f90b,
f00e2db0d53709fac8,
d08e53b4b13d1a4e35,
052b26200bfcf51406,
e81a0df12e2d0be619,
1af82a001c25f8bbbc,
13ff0ed5f3d824eaf4,
eaf600fcd4fadf09e1,
f9021d41fa2add2949,
0020fa1b2015241011,
a5edb3240b2c3d08f9,
2223f3cf403eded11c,
2d2934f84032c7d4e1,
bb282cd8384d1707fd,
ae81a54f11e5681c4d,
f22734fd082ff0342a,
fa241720f2fa0b050c,
22380f032b010202ea,
f85026f03510ff21fa,
15160e08f2d1f0d4d4,
dcc1eae607f8edef0d,
1805f62322e71d4ef7,
f5f40510cedcffe8e2,
fbfced31eed8fe2cc5,
0632d9e415da290fe1,
0f112eef1d14f0fd35,
f005110f1d110f1614,
1016192329082019f1,
22212e00c6bd4c153e,
f0c80adaeddb0308fc,
172b012f350f24110f,
1e0508301bfb150a01,
f4d302f0dbf507e6f6,
f8a8d9e5d1f90d1a06,
e5ffebe8f607dddcfe,
eb12e207d9f1f8d6da,
7d27d00bda38d902e4,
919faa4df571ee287f,
11fc0f0c0519f8192b,
161c0e151c0af00afb,
18070b041d1c081200,
db272edb1117e601c3,
2149f31905f02c131f,
ebe1cc1be3f3ded2c7,
818bb033b84a06212c,
1ce3e2d704f6f6a1c1,
1c201024362c0924fa,
cea1a6e427d3270d44,
2929f1e6c8e6d0abd6,
a0c4ddf8e4f1ff34d5,
0cc2ded4dff5d5f8fe,
cf1704bae0d7cc28d0,
2931f9385026291be6,
16cff426103acac4a6,
d51c1eb9ffe3fbc4ce,
b3aec5242f5bde231c,
1afd1e034122032c0f,
d8dbd4c8f2dd00f23c,
dbd716342c0e79293c,
0ae7d7ceddece81fbe,
e8bf07dcd90201e2d8,
2516ebc3e2ff91efaa,
b1fe14d10654460f18,
fdd3d4d9ddc11701eb,
d3cad3cbf6daf3c70e,
02feec444c6a13fa3b,
e921183a2834361134,
35623df00acecb2b0f,
bbc2d69fc29dded226,
dda8aecae5fc290300,
4e5a44f21a370be402,
42ff0f1a1345f32efc,
1a1ff6d8250c3840e7,
daefb2d6f2d8e911be,
404d0aec3edfdb00fe,
0d21ebbaae3a95b9dc,
86052aefc2d9be2b35,
ded0e6dee3d9c0e0cd,
eb113315305b2f374a,
3b25163010e02e2836,
bc16e11d25d7c2eb9c,
503343041705eeff1f,
b7d3d1dfe4ece4f4ed,
0144072a340312ea24,
bea20a10cbf36c6a41,
e7f7e480f004d115e3,
fb05d6e2c8d3e1c7ce,
d513ec58fd2d2d384a,
04002b4c43281939fe,
3f393bec38fce2ebee,
f6ebfceafbee020703,
f7eaf1f4e6f9f6f509,
f3fafdecefede6dcf8,
17fc0d0907f9171508,
e8f0e7ecf8dffce9ed,
dbf9d8032007db01e6,
f6f900f6fefdeeecff,
20190511260a131805,
f4e4e92e2f1c302a2b,
ff09160c03fd0a0f14,
08070f00130204150f,
fbf90104e5ee05e7f5,
14e1fb441fc728fccc,
0f000b150f0b0606f2,
071304fb0b05060f0e,
faf9fae4cff7f8e908,
80eda081e1afb0fad6,
04f9fde2ee00f1eef5,
e509f6fb04ffe90bf9,
0febff160522120b1f,
0e19f91010fb080b06,
11ff12150e0815140c,
e4f1f1f30905f1faef,
f8fde5f0fdf0f3ee07,
e1efe9f7ed01ff120e,
fa03ecec00e7ecf0ec,
e5ebffe914fcd0e7d3,
f9f5f0f100fef0e5f4,
f7e9fd06ecf10bf003,
f6e910f8df111efe23,
fcd5e1fee1f504ea17,
fe0f06f3fcf5ecf7ea,
0001f7fffd111e0c20,
130311fcf70113010b,
e1f7e2dff2ded8efda,
0e050b09040c120c0f,
f9f6f9fafbfdfa02fe,
0b0d021009070f090b,
0f0b1907fc0d050408,
1609100b010e140d15,
0a080b060108080205,
f8fef5fff5f603f4fb,
061de7101af61901ff,
f0feedfe0102f6f5f3,
1e151c20131b2a1c25,
f001fcf5f804f7fef8,
f1f6f4fd04fef1f9f0,
e4f0e5e5eedfe3ebd9,
e2e3fdd1d3e1dad3f7,
101be3492b1b040523,
def7be05fedbeff1c5,
faf4ee02fcfff3f4fd,
0e0411120310150413,
6f3e655c174b7f467c,
f7f9fbf7f4fefaf7fe,
0e0c020df4f10606ec,
fdf6f5fdf3fbfdf0f8,
f506f10805f3f0fde4,
0c09090a040a0a030a,
d8e8dde2e2f3f4f4f1,
f50702ed0105f0faed,
00040f0704090e000b,
07fe0c0a03090a0407,
f5fef3fb04f9f300f2;
