memory_initialization_radix=16;
memory_initialization_vector=
fe8601b300c60196,
fe99fecbff41ff99,
ff7202c90008004c,
f6a206d708ba0529,
f435fb7dfea91343,
0b7715a7f9cb0613,
ff96ff06ffa70021,
00b0ffc40074ffee,
ff2900580078ffa1,
07e1026ded0106ca,
0a32ea91f9ef0216,
07080202095cfeb3,
ffeeff51011e01cc,
00b0fe6cff4bff2a,
ffc7ff7b006bff9d,
ffedfc7dfcb2fe89,
0376ff2fff4e0107,
ff40fe2100d00064,
001e0097fe8ffe58,
0861098b12ff0a05,
1325ed4e0ea50d7f,
171ffbdbf88f0e15,
011ff72ff62c0f51,
ff66fe35ffeeff29,
ff71ff8f0198fed2,
001cffbdff09fe26,
002a008202aeff45,
f6de07a00481fefe,
0a6e06990b3cf694,
043a003f0f57f87a,
ff33006ffa70030c,
fd2a00bf0307ffd9,
fe63fd73023e00b4,
fe1afe0affff0167,
fe5a02bffde6fdff,
010901b702be02c9,
016c02de00de038a,
ffccffdc00d20172,
009701b4001e02b7,
0028ff30011f0109,
0012ff28fe4cfff1,
0002fe53ff36ff20,
ff37ff7fff7f00c2,
158cf8f0ebb1f9be,
f652f3530f56049a,
115d039d00bc1010,
0345f5611825f45a,
f29aeeed0cf0fb30,
eff904160dd7f7da,
f85ae72e090e14de,
0df50d25fb22fab8,
023801ff01b90304,
02be014c031d0188,
034f023d02ce011f,
0202013d036200eb,
ff6f016efdd6ffcb,
011eff6b005e00a7,
ffc600cfff7fffc5,
00dc00a0fffb00a5,
14f700570ded0292,
fecc04bef2600346,
fb48fc56fd670939,
0d5312270bd50635,
12eefd65fb6a0288,
09350679027a0534,
088c05db10340dbd,
0ba2f9e4f9f008be,
030201740368008b,
017100cf029401c8,
02c8005002770256,
0080030103af0123,
02590224019000c0,
01a302b402dc038f,
0136035203ab0186,
01c2032a01890291;
