memory_initialization_radix=16;
memory_initialization_vector=
0e20a80b,
e331084f,
0926efff,
22f1bafe,
d1da0efe,
2b11d1d2,
d9043cd7,
e2e8e63f,
0405d1e4,
2ce5460a,
e8d0d3d3,
d73addf6,
b7d301f1,
df3ecd30,
cfe4de23,
11defe51,
af4eda46,
ef1f02b4,
14efe94b,
57384931,
1cfbbcd9,
34e42cea,
19a18109,
f40b01f6,
1e2a0b2c,
55fcf602,
e5ed0c17,
3f24edf3,
3cf31e25,
c549ed0f,
aeb9ebee,
eaed2615,
e3eae80a,
f3c819c2,
540c090f,
d4322b25,
e537d1cd,
24120b18,
da180f09,
3146de05,
eaf4e33d,
dfe2e9d3,
eb3d0f21,
c4d8ef35,
acebd9ed,
401014b6,
e54e14e7,
c5112e12,
2e04dfe2,
2410d73b,
f4cffe0d,
1d1e1026,
17dcdcdd,
15e829e1,
e50cdaed,
e5fd20fe,
e4382dbe,
09cddb1f,
18da1310,
f203cfd7,
09ffe019,
f501d3d0,
290fd507,
fdde322a,
0ff900a7,
18241adf,
092a09e3,
1312dd12,
1604dde4,
39c817fa,
21dbe5fa,
e93005fa,
f608ff17,
090616eb,
f6f712e3,
0ae620e0,
fb1910f1,
e9efdce6,
21221bf9,
0900f200,
dceb45e5,
d5e118e6,
ca3e40e1,
d2e0f6ed,
adc6f625,
36e31406,
e9d7152a,
ddf7e5fd,
25cde507,
30281207,
3c24ceca,
a5f4f807,
cacb4605,
dcbdcdde,
7fddf8d5,
eee51e28,
b6f2ec46,
79040059,
aa1be27a,
1af0cb22,
e4b5fb12,
214e0e2f,
9a3935e5,
b1332f27,
c9a1db06,
3f1c88e3,
ecf605e5,
ed1840de,
151949dc,
00e21658,
d72bc327,
fec965d0,
52021ce5,
20d9a6be,
c0104b14,
20acf8de,
1900ff55,
240533c2,
36accc30,
5b68f458,
f8fd56cb,
ca62312f,
c2e672b8,
7f17060c,
ee17fbd4,
bda8f2f1,
2f9ba6f6,
09adca0e,
4ec61506,
34f0e60b,
2f0bff78,
a805f76c,
e8e12817,
fc1bd11c,
e0ea63e0,
84734f1a,
acc91016,
17f5cff4,
f9002324,
55c5f4e4,
ea672fb5,
1c011bff,
29807c10,
c6fdcfe3,
baa6ee4d,
9b3c2f39,
4b37c2c3,
2dfd2ac3,
d427196c,
f2384b1e,
ab3225f1,
28251c23,
dc6eeafa,
16d2e195,
0736f4b9,
b0610307,
0e5dd703,
c811110e,
b4f61128,
06171530,
bc0fae20,
f2f4b1cc,
ef2f2b2f,
dee734e9,
1cc88f20,
00cf4820,
70f1bcb1,
b6030304,
2cfbf7cc,
193c28af,
f9f4ed3b,
c8f0dae4,
59db2131,
cbca425d,
10d6c1f8,
dee0adf9,
01ddf51a,
0711f92d,
f343e4ce,
413b3c22,
d81c2a17,
eff4e631,
bff9fc02,
09f91d0a,
0ce00733,
3626e810,
41f91b24,
e43533e3,
ec128d36,
d71ef812,
eb2fff07,
d3f9ea5f,
d7f3f11c,
f05feb39,
d6d5143f,
421f05fd,
b62febec,
0a3b29ef,
b0b802d7,
f728ed22,
05fbeefe,
32bbfe30,
e92880f4,
08df0737,
287a1902,
e72f00ef,
27f30e0e,
e70d04eb,
46ef31ec,
dc041453,
de0a38fa,
eee064ef,
d9d4cd45,
01d7e4e6,
b340d515,
172d3614,
20581d2e,
2d02f905,
aed22c24,
c8ea0400,
593fc7cd,
1ce20d24,
ac1cee27,
47512511,
14f561b6,
1db80e1b,
3de7031a,
e4fa53d4,
35fcf4e4,
d10c2af7,
c12fcce8,
ea15d8ff,
02f53643,
15e2e400,
f0fbe5f1,
d30b11ee,
fc11b82d,
b8c842f4,
0558bdb9,
e93540ef,
fce3ced8,
a3fc0535,
eb0b1bdf,
21230410,
18122147,
d2c42ef2,
01a80d08,
05fdf2ff,
e3e0df4d,
c6f3dace,
e6fbda2b,
db2a406f,
3570fa09,
fffad2cd,
0c36cf04,
0fe20426,
19121e10,
1b07eefd,
f3deec41,
d0345bc0,
3cdef602,
1b1e061a,
0aeae1c9,
c80557f3,
3328f400,
f217c613,
e20c2329,
f0132340,
f4d613db,
664218de,
fa0cc5f9,
231809b2,
fc0946e9,
f217ecd0,
18e10c08,
13f8e848,
de1a36da,
fafbda05,
f905ee2b,
51fabc03,
ca2e0f43,
d415d823,
dfd62c19,
0dc2330b,
eef6212d,
f9fb2d0d,
e719f948,
f6f6cb3e,
fb813b2c,
060d01c8,
f907fa33,
35dbe1d9,
f637f72b,
e6e7e728,
db0b4119,
f55227d3,
d8e510e2,
fafa301f,
12e5fafd,
14d1fffd,
b9fdf724,
0ef2c5e0,
e0eb1122,
0bb6a607,
00f73e0b,
eaee3b2e,
364befee,
16c9b20a,
ed0e0d99,
45dae989,
2a292af1,
f1cfdf16,
e51a143c,
cb2ccee6,
f3e6b6cf,
122fe505,
124402ec,
de14fefb,
db07e9fa,
dad9ef58,
d5aee95e,
d9c39fbf,
cf1d0be1,
fdca20e2,
ced1b310,
1c3be0b2,
b7fa00bd,
f45b02bd,
f63082c9,
d9131748,
e60d2131,
c11be8f8,
f7feee0b,
17aa0bfe,
1be5d21f,
dde008ee,
19644ac0,
ec050fe3,
d1cffd00,
0c7fe5be,
e2f133e9,
e35e08d2,
e21f0644,
e0222119,
27dcdc05,
fecc94eb,
e8f4e8dc,
fb0d0efe,
f01a05b0,
1ee930f0,
d7d20406,
ca2ce61a,
03221612,
e6fad30a,
07d02717,
b6d2cefc,
d840c789,
181712fe,
0bf7f9cb,
f5e05710,
9f1e380b,
f0db10ed,
fc124dc9,
1747db0d,
21fce7c8,
f4c7f15f,
b81115f6,
0bd5be1f,
fb3424c9,
d4fad7d7,
d4f9f2f7,
e9b330ff,
f31626fe,
1fcc8d27,
14061124,
02086aee,
2c9ecf1f,
1c3c59e2,
f823dfdc,
bc1df4d7,
ee514fc6,
96c122a5,
f7281cc2,
56e708e9,
3eead906,
1a07c9fa,
48121892,
8b242660,
e9b803a8,
e01b2c26,
092f1a2d,
d6469fd0,
66b3ef24,
ebec2ef4,
ea21dd1a,
0865f2ea,
01e03331,
28d83742,
f0bf2223,
0919e4f4,
f2ce3821,
c8e709ee,
dde527f6,
b7170024,
b5c93329,
c0160323,
01dac9c1,
22d3161f,
6200e9ea,
61b3d742,
2bfcca1f,
13d2f23b,
18cb380a,
3931e651,
a209b13a,
271311a8,
dd3646d8,
0edbddb8,
ecd25516,
081f4dd6,
092c033b,
be0f1227,
e80cf205,
f309d5e6,
f8ef19f2,
ecdaca2b,
354ddbe2,
f0e7db20,
172bf2b4,
d948e11b,
f5339e20,
2214cdf4,
dc06ff53,
3a1c71c8,
1ad614f7,
302fdb57,
25e8c518,
18073b0d,
38abf8f3,
7152d6e8,
f12bd50b,
d92cf62d,
bff31e1e,
210efaf1,
28e03e23,
0aa70028,
2f12feca,
425753dd,
49e70ed7,
1ae65623,
d6f13de9,
7fc3dcea,
c3ec092c,
5d021907,
211fede7,
bec90eab,
2500c6ca,
c4f1b13e,
c7b9eebd,
2215f251,
0408c7f1,
e3e2c405,
c423d22b,
0b1e33df,
e6dbd5ee,
3fab2d45,
2b2a35bd,
1c0bc31c,
f9080c39,
c2e23a2a,
20422afd,
27050881,
14c0e11f,
f50ecdcc,
09e822e7,
65cce560,
f8d7d1fb,
2e231dd2,
c206f0af,
4fafbf32,
d0aa312a,
c71f074b,
df72e007,
e2f30239,
f7a708d8,
1c2a1003,
26a3f02f,
da2aa5cf,
971edd57,
2843bd0e,
d0af07dd,
e8e92951,
2db82ae3,
ab55e3e7,
56dc0328,
1c350b31,
50db9d4d,
a5f1dfdd,
e42290e5,
11ddbed9,
18f02b15,
b019094e,
1fbc4920,
f21bba54,
c5e9f53a,
d3358fce,
06bc14d9,
13041af9,
0c5de033,
4a493b15,
d8f11933,
24ec460b,
08ebf0d9,
4f180bba,
9804159b,
e7e21a28,
bbd125b6,
c1c9d344,
dbd720ed,
5733f21e,
2fb7c10b,
3728ffcd,
c9021741,
ddda35ef,
e924ec10,
dbe8cd2a,
df2de6ea,
e2e53ebe,
161da51c,
0eb5deea,
2b1be80a,
fde4f73d,
d94c11e3,
ef13f7d9,
2027071b,
e7aa26bc,
f0503e38,
f2db5519,
d7c9241c,
1110fba2,
b7efe511,
28cbfc0b,
41c62013,
c7d41aff,
324fbfdc,
2cebef2d,
d1d2c32b,
03b6e545,
17245039,
50ecd8b9,
14bf12d9,
cff4f819,
e7ef57e8,
bbfe1819,
d9f81a30,
e7072925,
1ee7b3e6,
28cdd754,
b5d97fd5,
d70ce8d7,
35f100e4,
c3f313d4,
c8106159,
f4dd4025,
ee21e001,
ef20bffc,
1d2409c6,
393ef3f2,
02cafe09,
be222c14,
22ba0f22,
1132f118,
100161e4,
b311a507,
39f331eb,
c8fbe1b6,
448d0017,
2116c51e,
14100b07,
1d1635cd,
134cf7de,
1b1ff539,
eff21118,
16dff92f,
ece2d4e9,
39ef1033,
cf25e2bf,
0ed13ad8,
3efd01d3,
e80b0ad2,
f1dcfde7,
090e27f1,
0af0fdee,
e70d320c,
f728bd1d,
e8fe24db,
db29193a,
1c08e91c,
e9fe1ef2,
1b172ff8,
0a2510fb,
06ebf4eb,
e9120406,
eb171ffd,
f103e414,
0cc60fd9,
01090605,
14fc8020,
dceaf7db,
10fdbbc9,
a2f6fb1d,
1cfb0e06,
37cc110b,
f6f2f004,
18fb030e,
1b02f20a,
08f3eefa,
3410f55a,
0ce724f5,
20f100e6,
1bd706ed,
fafd17d1,
12f0f110,
e4111ae8,
0c10f132,
fe34cf05,
20ffcd18,
0403000d,
000611d5,
d4e8fb20,
f707b5f4,
faf5d6e3,
c91207fa,
17ea1de7,
e8190e05,
1e20f52c,
311427ea,
00da05ce,
0517e01d,
05ed6100,
13d726f9,
0fc457e3,
2e10ea1c,
f6edecfc,
efb817d2,
07d625e9,
0211f8ed,
b90e1e15,
16e1fff7,
08eed132,
56040e04,
24f0f4ec,
f519092b,
e728e127,
f30117ba,
ed0d0a36,
2e0518ef,
d6d3f414,
140711bf,
f41ad1b5,
ea200411,
17daf2fe,
bea9d017,
dbf92deb,
0ae01be7,
1a260dfb,
ed0d16f4,
f8fcb9f2,
fe3617e3,
12f2f00b,
02edfdb3,
ea0eeb08,
092decf8,
f302ea26,
f1facee2,
2b2ceffa,
fd1c3c13,
0be8ff05,
09221708,
e3e83b0e,
091a01d6,
3dfa0ebf,
f50fae2b,
f6201529,
f722d8e6,
e4eae6ce,
eef9f706,
d718b40c,
f7df07f2,
b426ef21,
e6d8f619,
19dbe0e9,
d832d108,
f207e43e,
fa00eee7,
b81cced8,
d10bf917,
051719fb,
d9d60d03,
33ba2213,
07d40d02,
f10bf0c3,
e1e5f50c,
13d8eff0,
f3dfdbeb,
ffd31200,
2cea0021,
261d200c,
ee251af1,
fb4ad3f7,
f2f3edfa,
f7ffd9fe,
28e82eed,
0b02185f,
4fdf1d03,
260329f6,
0bfdf8fd,
f9f4f1e8,
10fd1213,
efea1f09,
0af9fc09,
f0e411fd,
12eb1820,
dc21e4ef,
e8f0f3ee,
1aee180c,
fefef6ed,
0df61f0b,
d60dd6f6,
f6eb11fa,
faf50801,
e207fff7,
ddfddff6,
2001e3f9,
0b04f718,
0016fa05,
1fd9cf24,
1a1deef3,
f40e0fff,
ea02f2f2,
130bf9dd,
eefafbfa,
44daf7fa,
f6090aef,
0702eb00,
f812f4ea,
1009f0f9,
0ae710fc,
eafd02f5,
101df8f0,
0f0d0505,
0ee4faed,
07f4f4f6,
fb110411,
fef71c47,
1110f90b,
0002ee17,
0416f200,
f30ef9e5,
eef3fbfb,
04f127ff,
e6fdf01b,
ee020f22,
1311030d,
e60ffdf7,
06f50aff,
f7f90f0e,
1b11f5ee,
fd040608,
1107041e,
2204202e,
cbe71dff,
22fef4f9,
fcf7f0f5,
0911d3f3,
0c0d0323,
2cf81cee,
fd081211,
0dfa08ee,
191318f4,
de291811,
fc1d02ef,
05d60b1a,
17daf033,
fb021611,
f213eeea,
0d10fe1a,
20e0f112,
e10c0ce0,
0f06e404,
f6efd3ea,
0a190102,
f00deb17,
002d210b,
011108e5,
0aeef80b,
061c0816,
02f1140d,
fce1fff9,
060afbee,
ed20f6f2,
10f31b03,
18f4fafa,
0107081a,
ef22fa10,
0b27f9f5,
fce92bdf,
e8fcf717,
15fa18f4,
f7d70117,
1eca04e7,
0c1d1018,
1d080ff1,
de0bfdf2,
010a0707,
fdf6ee03,
f8f3f6ff,
0313f422,
eff715fa,
e6fe24da,
fe17181a,
09081101,
ea07f50f,
f4efdeea,
02e9e7fe,
10ec26ea,
0d03fff8,
f1010c05,
1617ee04,
e706f8fe,
19f3ffff,
09dae411,
08dbdf02,
f6ede5f9,
f716070b,
1aed2008,
02f80df9,
16efe9f0,
d5eb191a,
1627f01e,
1b0df2f6,
1803050b,
01fe0b00,
ee1b04f6,
d63441ee,
d512f737,
171f1229,
afdd3f1a,
c21ad82d,
25e20ce5,
e4c5cceb,
5320f813,
d35a5be9,
dac1dee4,
f5eb3cf7,
b9f8112a,
350ada36,
11140edb,
ecd121bc,
9a0b0a26,
f7e8f446,
0e30c7ff,
e4de46cb,
2120f13a,
492c04ef,
47190cea,
353dfbd3,
c414392a,
ddf70ae7,
ccf7e629,
fbf9fc27,
f90611f8,
ee2752fe,
a4d92aec,
f3e1c6c8,
2bc91a39,
dbf8f620,
eb17cfe0,
fb11d6fe,
f418f8a0,
ee281520,
290cef30,
f223f1ff,
0e0cf91f,
2e03cbf0,
21c514db,
f310002b,
f8dfe6ce,
4211eab8,
1a3eb6fc,
d6c30ff2,
27dd0e0b,
f1390b17,
0fc80af8,
12320527,
177fdfda,
17d707e4,
c7b8f5eb,
f60c0e0d,
f542e835,
bb14eaeb,
0307f3e3,
25161ed7,
0bedef13,
31fd0c29,
cdfe1127,
112c11b3,
2711ccfe,
fa06de0e,
b91c20f8,
1b4b23e9,
ee0338db,
b8b22b2d,
d816580d,
d60e3c1a,
1e3b24e2,
47cfece9,
bf0be7f3,
efb2ccff,
2cffe6fc,
e8331616,
381ff5ee,
fd8dd5c4,
a50eb801,
28f2aaf6,
df2515c5,
05b231f3,
e1acca10,
2f05d701,
f411fef5,
25ceffbc,
eb020108,
b907e10c,
0747ecf2,
190523d8,
1c3fe1fb,
a3f303b0,
ede6d6ca,
f4331d16,
1de91102,
acdc8ced,
ef42021d,
0d1ec921,
c3dbd717,
29075e21,
0b162b27,
d47bf6f5,
d201fcd7,
3cdefef2,
4bc4f1f8,
25f02e02,
cf06eb2c,
1d4df315,
1a05fbe6,
04e708f7,
0c090ff0,
dfedffdb,
110bad0f,
31dc32ec,
e8f60ef9,
dc1d8813,
ef09001b,
ff33fc05,
142bc41b,
17eae8ee,
b5102cf6,
ebf6ed40,
0aacdfe7,
0020af1d,
ff66c128,
bde30902,
0dc9e8d2,
05cb0005,
fc5afcdb,
3123e0f6,
23031de0,
021722f4,
273ff915,
140dcd03,
282c1409,
f606e40f,
f6272505,
002dfc22,
0c1e0e01,
fc51ecff,
21eb011b,
e407fcce,
13dbecf7,
4adf1d04,
d020e602,
04efa9ee,
1cd1eb11,
13c804ee,
09ce2111,
f210d208,
e84f9dfc,
12efebe6,
15220f0f,
f51bf40e,
04e2bfd9,
d0e90def,
06291813,
ddf33af4,
fb3dda08,
14f60f30,
3a0f03f8,
2b26ca10,
f7d21bf8,
ad15d5f2,
2f311403,
09effc4c,
1701fad6,
ebe7d5d7,
ee22cb14,
c52411c2,
09ccabde,
d9202637,
f80beff4,
0ca9f7e0,
490c3043,
f0fbffd7,
ede6ee23,
19b9c139,
05bdf80c,
05d61607,
19192b22,
172f0368,
0c3a02cd,
20e81d1e,
2aff3ccc,
dff5e6da,
04e7a913,
0f12e518,
09dab5cd,
1cdbff04,
0537c832,
0feb4bea,
1d08c7e9,
f71361ea,
d7e6efdd,
15fdb713,
18f83de6,
fe19d9d1,
cb0ae32a,
7c12cbe8,
f620d5f2,
14f63e13,
e3edb780,
e9044422,
09fa5dec,
0a1426c7,
0314a80b,
0c1b622f,
df091814,
07252de2,
eee00015,
cb01de1a,
0735de05,
12301a0f,
e7f7c9fc,
2121c8e5,
e41bcefd,
43240cb5,
4933dcf6,
f710c9e6,
1d1991cf,
af0be3d3,
f5f71926,
ee1fe9f0,
0bfc00c9,
0ddcf41c,
d5f001ef,
f209f802,
11df1e07,
ef1403e0,
35eef20a,
a9bd0000,
030e1db2,
d4f514e4,
e8faeefa,
e2c3110d,
fae10009,
b707eff2,
3622bf1e,
30fc5e30,
f00ed423,
f9d0e0d3,
cf24150d,
dff4165f,
37111138,
a0161d50,
14e6b2d9,
d9cc3120,
19fc18fb,
23d11b27,
f5c4fa39,
0b13d50e,
dafc2cf2,
0ce5042c,
2befe6d9,
f92c16cb,
42f20ef7,
06fdf11a,
fb44362d,
d9fe04eb,
be1d37ff,
1228ab04,
dcf40ece,
e10b1f10,
07ede114,
04eee939,
1de0de1b,
17fefb09,
e9ecf013,
2821ec26,
dc163e0a,
eda23b20,
01d505ed,
fb0b14ee,
06fc140c,
1df1d7ec,
dd23a11f,
0c061f0f,
0ee7ee19,
21fdfdc7,
06bdae36,
e3fd2618,
21e3f1f1,
05d8ef11,
f9fef0f8,
f8140803,
fbfd26b0,
1a1a0fed,
f8e113f0,
0ff318e6,
11fd24e1,
bdf42bd5,
1610d5fb,
ef0e0932,
f770b10f,
f7e41ff1,
40072add,
ed06f3f4,
24ecf9fa,
070c0b1d,
131430fb,
2b02f911,
15c71ab7,
99dec6fb,
d90ceefc,
f721eb07,
f5f31e05,
ff0de4d5,
2923d3f6,
b4e80ade,
1f0fc114,
e0103feb,
2c159107,
f9ef28f9,
efc424f1,
0bdd2d26,
ef1204fe,
101017e5,
f41f250b,
e009db2a,
fef71bf8,
0e0621f2,
ccedcb28,
02ad3116,
f8e6ec1f,
bb0b1e11,
36e70a23,
2f0012ef,
090d0714,
1e0526f6,
1d0b1b03,
faf2fbfb,
de14f01a,
1af44701,
fabb120c,
f5fd1cbc,
080e1afb,
dbe4e6fd,
320a0a1f,
d90be8fe,
e8f04ae0,
d9e521ea,
e309dc09,
e9f30022,
092c14b1,
16f003ff,
1305e117,
28ef1fe6,
e71706fd,
efbfd70c,
ea05f8e8,
1925f124,
26eb010d,
0ce20100,
14f2e2f3,
dccdcf32,
c51b04f7,
1d05f2e1,
efd82043,
02e52d04,
1021d00e,
19f92a3f,
1b06240e,
2311f105,
190e08cd,
ee280f01,
8c2804ed,
0ae5bb1e,
d2271bde,
d5fb21df,
22ec201d,
ff7fcdfc,
cb160f19,
03dcdffa,
e9fb31d3,
01efe105,
1fdbfdf5,
ccdd16d4,
eb3c25cf,
20ed12ff,
f911f8c4,
07b711f7,
dd28ddf5,
f8f81bf2,
f71cf017,
f1ee00eb,
e1ff10f9,
e3dff020,
e7f0fd1b,
180de9c9,
f8edf216,
ed18efec,
e723f1de,
f3f1f5f2,
f121e900,
fdff2e04,
ed1504e7,
d5120108,
05f90c2e,
1410f4ef,
f3ff061f,
24effe0b,
27e21117,
e5e8f1f9,
f903cde0,
1f021af6,
1bf1e414,
f40c0aff,
da1cf8f1,
0214ff2e,
e8f6ff0f,
f901e52a,
25cbd5fc,
15130a01,
fbf60ee4,
1de9c2e6,
2ff01e31,
f8dfef26,
06e6e512,
da22f8ed,
10fe1cf9,
f2f8edf0,
0bff0314,
3e063205,
10e0f4f7,
15dce930,
1611080b,
2ffbe500,
250e05f6,
e70306ff,
f5ec1123,
0822f905,
0014f7e3,
010b14f2,
fb20f50b,
e6fdf5fe,
ede901f7,
e80701fb,
1c1d01f5,
07f5c8fe,
02faef10,
23061eef,
f6de0201,
f7f4fc06,
0102ff10,
2a0ff516,
defd24f9,
171408f9,
fb22fc11,
03f73ced,
f7100502,
f91b111e,
011406ef,
0e11f02a,
00100ffb,
ed0101fe,
f01a0aed,
f415e428,
0feb1bf7,
02b0330f,
09ef10de,
e903f415,
f10c0f06,
11fb0406,
0405fdec,
090d00ff,
edecf403,
041df8f2,
05eef92c,
01f1f3f5,
02ecefe0,
0cf5f9f9,
050516ed,
0115fc15,
0114f0fa,
0ae10904,
0bcb11fd,
fc1bd7ef,
080c0fe0,
fef4f7e9,
11220e12,
21cceef1,
e5101216,
f11e04fc,
02ff0d04,
0726fce2,
05ec1c16,
160b0df1,
0ff812fe,
ff151d00,
1a12e911,
eb11ff03,
e1e2f203,
fb08f81a,
0b05081d,
2902ebf1,
f8111f06,
fdf7f3f8,
ed03f3f7,
1605fd01,
0e30e007,
feffeed8,
efebf4f7,
15190907,
20f60af8,
f3070411,
07edfb20,
fdd7f4ff,
06daf90d,
e82d0bf8,
fa12fd0b,
98d7bddc,
09fce09f,
44ded03f,
17013bef,
07fe3823,
9c1ccd0c,
1620d41b,
36d038ec,
f1ebeae8,
f2f9221c,
ff0ad516,
c531e229,
aa1320f2,
1609d4ef,
8ddf14d1,
0610cbcc,
dd23e1e9,
f0eb2d37,
ce1a19fc,
e11ccbed,
10fe341a,
30e9efd8,
cff321b2,
1aefd436,
a4f2e7f9,
3f02c7b6,
f6e4f3e8,
1ed501f3,
db00e029,
b900be04,
a509f04c,
b2e7e4fb,
0107df12,
eae7c61e,
f2dbf9de,
1e24540a,
eb0a0dfb,
1a1a1006,
07f47601,
1f193ba5,
d7cfcac2,
bfa840ee,
06e0fddd,
b4db07c7,
0dd4cb0a,
fb05bcf9,
eaef1e39,
3109fc48,
dde8014e,
00051ee5,
2f2eea37,
1ce418db,
0c031f1a,
20345fbe,
e0033408,
0207effd,
e4ca3bfc,
0905fb4e,
08f7ef31,
2a030013,
edb30813,
0e33d78b,
0f200001,
def830e1,
101feefc,
2d16e724,
181506c8,
ec20393b,
efff01d0,
01d637c0,
fffa3b42,
e405d8b5,
dc08f9a8,
30e2bdfd,
06da29fa,
0be5cf29,
d338de10,
e8e49ae5,
02331604,
1de80893,
12144cd0,
e11f2d16,
f122fe06,
f31e14f0,
04dcf81d,
12e80b2a,
25e513e1,
03200f02,
1c1a0ee8,
22eacc3a,
ed0bdc8d,
4cecb520,
b6f8dc44,
faf6fb46,
c0d43de0,
212679d4,
dce614ba,
ca05d0cd,
e61030e6,
e2f50d0b,
0127be03,
00b1220e,
c1efe4ef,
ef9c3c28,
f6db1ed9,
14fde718,
45cbdfc2,
233ccb11,
da1ffdf1,
ed28eed5,
c7d5bb10,
1ec7f71d,
1808c109,
c2fceff0,
ec0532d9,
e8f9afec,
e0f34812,
eeaae0ed,
f1b8c432,
0bf4edd1,
030cf903,
fa2df8ca,
d2fa23dd,
ef0a0beb,
d622d5d9,
b0c209e5,
e717fe01,
e8c5c71b,
ed0dfbf4,
4c01051d,
3af0f611,
0a0912f6,
ce24f6f1,
2a1419eb,
edf1e023,
d5f4ede7,
ce0cf0f5,
b9e7efee,
151101e6,
c5f4db0e,
ed1101ec,
2e093df6,
a8121800,
d8d714d9,
2a0eff06,
14f6f1f4,
b5f606f9,
c6bf1906,
23e8fdfa,
8134faf5,
d8ecf6ee,
f2081217,
29070bf3,
d2eed111,
e303c9e2,
fccbeef3,
e2e1360e,
effcfbda,
f60720d3,
f80c0411,
0cea08fc,
f3e80207,
c6f5e626,
39fff434,
0118fec4,
27bf00f4,
22e4e2d7,
efb60024,
d8bcf9d9,
f852ecbe,
cdff03f2,
d334012d,
d8f1f2fc,
ddf704f6,
ddefddea,
24bf18d7,
b0c6f63d,
e13febe3,
b5d4ee12,
0b16ef09,
012e0654,
0f05091b,
a8ceeec1,
bd06f4db,
09ffe4cb,
2232f401,
f1fed7f1,
2b0309fd,
0de300ed,
3f1b01cb,
1305df22,
ecfee9e5,
db00ed39,
fd60dd2b,
0f0625c3,
26dfbefe,
bfcbd411,
fe2034dd,
f4f0ecda,
fe440680,
0405fdb4,
ec01ccef,
f9f4ebfb,
1713101b,
d0a6d803,
f23eee30,
ce98a828,
d913b708,
fbba1614,
fb181ec7,
04dadbf4,
f6afd7f2,
2b29320c,
dcdf8514,
f7e7f6f6,
08e02dde,
f313e0cc,
03e81f14,
0fe212ca,
f6f60ae4,
18091b08,
c81dcef5,
ca0e12e0,
e204d7d8,
bd14e00a,
251a711d,
cbd9c648,
effd3409,
170a19d9,
3b551509,
3a40e3bc,
ec0c1914,
dffb2d06,
190522bf,
1539f7eb,
e33305dd,
d712fde3,
d4e6fe0e,
8eb90908,
2c3b27e5,
e901c31b,
f4eec3c9,
dc24f617,
26f808e4,
d0df24c2,
4d070aea,
c1fae514,
e4fcc7ff,
dff90918,
1bd310ed,
f0f1fbff,
26e0161b,
c59e38fe,
f721e4c6,
0e29e3d7,
c04e0a1d,
defae6f4,
1b0c22f4,
df9bedb3,
2ef4fcfb,
29d3d8ee,
fa14c718,
38f811fe,
1318deff,
1fd5c7d0,
0f0fdcc8,
0715390c,
27ed2011,
f603cb29,
ec201214,
eeff460d,
2dbe44ef,
cb0318ea,
e4eadc0a,
23d8c1b9,
2e1bf012,
3728faee,
4c0cfe09,
0e420503,
f70902f8,
d7e4350d,
d2f127f5,
0afc6bd7,
051806f1,
0d13df03,
f3f44503,
ed081f17,
f0fb18c6,
132a1144,
094c2042,
10271ffe,
22220400,
fc1716fe,
0d14e60e,
e105f32e,
f2102aea,
ed05d9e8,
0229f004,
efd2ecee,
fced0d08,
04470168,
f8f9c618,
e5f40f07,
f9fe08d7,
08101f17,
0604f503,
011d0bfe,
e8eaf009,
1ef30cd0,
11e62ff2,
fdc409f3,
e5e7dd04,
121d2b26,
aaeee802,
0acf41d3,
d10805de,
eefae31b,
29cb2df5,
e4ceed24,
22f146e4,
022deb13,
311ce21a,
0a2812b6,
162d0ade,
11ccef31,
184bff08,
0ffbf235,
1132e41f,
12ec2e0b,
13e9faef,
d8e50230,
20c1defa,
0b10e8cf,
d42103ee,
ff0fb30b,
020ee739,
0717eee4,
e71835f9,
1d1211fd,
ed041621,
3ffe02fa,
f2b9e529,
05f1d6f4,
e502fabc,
e8fdb624,
e22803f4,
f8f9d3fb,
ba03e712,
f1e509c9,
f505f701,
e3db0115,
40ce06ee,
02ecf3fc,
db27101c,
20e9f0d6,
40fd2316,
ea144302,
f910dc3a,
e0200804,
c310d611,
d70105df,
e70d1efa,
fde7fbeb,
b8130507,
0fffe251,
ffe10a07,
e2e4ef15,
c222c9d5,
16ca03e9,
08f0ff02,
1af92fc5,
231efed8,
fd5cfaef,
1b077fee,
21f7fd0f,
fbf001fa,
f9efe314,
21ed1017,
12f022b1,
44b7060c,
061907fd,
3909ff0a,
e3f70a29,
ce2ff7f0,
1a0323f5,
082111fb,
98395cec,
e92a3ee8,
18f224fe,
f9400af6,
3418e513,
0df00024,
f35dfed9,
e5151c19,
0df2ddf4,
3d15f5e5,
f837f642,
0b0d1a0c,
ca2ff1ea,
ee4124b5,
b8e10104,
fa3818fb,
c624212d,
1d02d5f8,
ef2108d4,
e9e83342,
f7130618,
fc06e8ff,
01d516c8,
1719c502,
ffe02dca,
00f201f0,
040cede4,
fff825d2,
1e0e1ee9,
ffec08ed,
31f30916,
14fb1a0f,
5218cc04,
3e2611e2,
fdf81936,
142f06c5,
d7115e00,
ea5c5921,
e42010dd,
e91cdf03,
e5eefc23,
f9f63111,
132517ed,
03d2e1d4,
f8effc12,
04123efb,
05170d1e,
1d0cfbeb,
20fa0524,
d40736f8,
ff4b38fc,
05e51662,
ea000936,
e4fdfeee,
051503f3,
d4050407,
17edf17f,
d0e10f13,
fe1fe6e1,
20010a0d,
09cadff5,
ff22d9f4,
03dce407,
1005fb29,
28a104e7,
4cd3f315,
f41525e7,
25e0e9db,
a70b0315,
be12eae9,
15d835c3,
d3210c33,
d0fcfae7,
d829ee15,
f9ead24e,
2305f0e3,
f8c5c8fb,
eba810e2,
dfe1e802,
f0ea1ee5,
eff706fe,
b731f7fb,
15210318,
04022700,
31c5d029,
e7f50be8,
01f9fa13,
fce317d9,
01195708,
0aff1ada,
e0190507,
04fe16fe,
3504f2fd,
d915f52c,
09f4201e,
432306ec,
e5ed49e2,
d0a138e5,
0d05e21a,
0de3f801,
301ca212,
1802b81d,
fceee5ef,
0efae6d3,
fe16df3c,
effdbd22,
4addfcec,
cfec05fb,
e99ee81d,
1715e039,
f5dd1003,
220615ef,
d0fc1404,
0b06dd1d,
f0050fea,
eff80302,
06abff04,
faf7dbc8,
c4d00c3b,
f7f2e71b,
b5f83123,
c8fa11f9,
2cfae8e5,
ee363612,
fcf91023,
232ee8f0;
